module attributes {dlti.dl_spec = #dlti.dl_spec<#dlti.dl_entry<!llvm.ptr, dense<64> : vector<4xi32>>, #dlti.dl_entry<i1, dense<8> : vector<2xi32>>, #dlti.dl_entry<i8, dense<8> : vector<2xi32>>, #dlti.dl_entry<i16, dense<16> : vector<2xi32>>, #dlti.dl_entry<i64, dense<64> : vector<2xi32>>, #dlti.dl_entry<f80, dense<128> : vector<2xi32>>, #dlti.dl_entry<!llvm.ptr<270>, dense<32> : vector<4xi32>>, #dlti.dl_entry<f128, dense<128> : vector<2xi32>>, #dlti.dl_entry<!llvm.ptr<271>, dense<32> : vector<4xi32>>, #dlti.dl_entry<!llvm.ptr<272>, dense<64> : vector<4xi32>>, #dlti.dl_entry<i32, dense<32> : vector<2xi32>>, #dlti.dl_entry<f16, dense<16> : vector<2xi32>>, #dlti.dl_entry<f64, dense<64> : vector<2xi32>>, #dlti.dl_entry<"dlti.stack_alignment", 128 : i32>, #dlti.dl_entry<"dlti.endianness", "little">>, llvm.data_layout = "e-m:e-p270:32:32-p271:32:32-p272:64:64-i64:64-f80:128-n8:16:32:64-S128", llvm.target_triple = "x86_64-unknown-linux-gnu", "polygeist.target-cpu" = "x86-64", "polygeist.target-features" = "+cmov,+cx8,+fxsr,+mmx,+sse,+sse2,+x87", "polygeist.tune-cpu" = "generic"} {
  memref.global @lowervec : memref<1001xi8> = dense<"0x000102030405060708090A0B0C0D0E0F101112131415161718191A1B1C1D1E1F202122232425262728292A2B2C2D2E2F303132333435363738393A3B3C3D3E3F406162636465666768696A6B6C6D6E6F707172737475767778797A5B5C5D5E5F606162636465666768696A6B6C6D6E6F707172737475767778797A7B7C7D7E7F808182838485868788898A8B8C8D8E8F909192939495969798999A9B9C9D9E9FA0A1A2A3A4A5A6A7A8A9AAABACADAEAFB0B1B2B3B4B5B6B7B8B9BABBBCBDBEBFC0C1C2C3C4C5C6C7C8C9CACBCCCDCECFD0D1D2D3D4D5D6D7D8D9DADBDCDDDEDFE0E1E2E3E4E5E6E7E8E9EAEBECEDEEEFF0F1F2F3F4F5F6F7F8F9FAFBFCFDFEFF00000000000000000000000000000000000000000000000000000000000000000000000000000000000000000000000000000000000000000000000000000000000000000000000000000000000000000000000000000000000000000000000000000000000000000000000000000000000000000000000000000000000000000000000000000000000000000000000000000000000000000000000000000000000000000000000000000000000000000000000000000000000000000000000000000000000000000000000000000000000000000000000000000000000000000000000000000000000000000000000000000000000000000000000000000000000000000000000000000000000000000000000000000000000000000000000000000000000000000000000000000000000000000000000000000000000000000000000000000000000000000000000000000000000000000000000000000000000000000000000000000000000000000000000000000000000000000000000000000000000000000000000000000000000000000000000000000000000000000000000000000000000000000000000000000000000000000000000000000000000000000000000000000000000000000000000000000000000000000000000000000000000000000000000000000000000000000000000000000000000000000000000000000000000000000000000000000000000000000000000000000000000000000000000000000000000000000000000000000000000000000000000000000000000000000000000000000000000000000000000000000000000000000000000000000000000000000000000000000000000000000000000000000000000000000000000000000000000000000000000000000000000000000000000000000000000000000000000000000000000000000000000000000000000000000000000000000000000000000000000000000000000000000000000000000000000000000000000000">
  func.func @StringSearch(%arg0: i32, %arg1: i32, %arg2: memref<?xi8>) -> i32 attributes {llvm.linkage = #llvm.linkage<external>} {
    %c-1_i32 = arith.constant -1 : i32
    %c0 = arith.constant 0 : index
    %c1 = arith.constant 1 : index
    %0 = arith.index_cast %arg0 : i32 to index
    %1 = arith.addi %arg0, %c-1_i32 : i32
    %2 = arith.index_cast %1 : i32 to index
    %3 = memref.get_global @lowervec : memref<1001xi8>
    %4 = arith.cmpi sgt, %2, %c0 : index
    %5 = scf.if %4 -> (i32) {
      %6 = affine.load %arg2[symbol(%0) - 1] : memref<?xi8>
      %7 = arith.index_cast %6 : i8 to index
      %8 = memref.load %3[%7] : memref<1001xi8>
      %9 = scf.for %arg3 = %c0 to %2 step %c1 iter_args(%arg4 = %arg1) -> (i32) {
        %10 = arith.index_cast %arg3 : index to i32
        %11 = memref.load %arg2[%arg3] : memref<?xi8>
        %12 = arith.index_cast %11 : i8 to index
        %13 = memref.load %3[%12] : memref<1001xi8>
        %14 = arith.cmpi eq, %13, %8 : i8
        %15 = scf.if %14 -> (i32) {
          %16 = arith.subi %arg0, %10 : i32
          %17 = arith.addi %16, %c-1_i32 : i32
          scf.yield %17 : i32
        } else {
          scf.yield %arg4 : i32
        }
        scf.yield %15 : i32
      }
      scf.yield %9 : i32
    } else {
      scf.yield %arg1 : i32
    }
    return %5 : i32
  }
}
